#include <stddef.h>
extern "C" {
extern const unsigned char g_model[] = {0x20,0x00,0x00,0x00,0x54,0x46,0x4c,0x33,0x00,0x00,0x00,0x00,0x14,0x00,0x20,0x00,0x1c,0x00,0x18,0x00,0x14,0x00,0x10,0x00,0x0c,0x00,0x00,0x00,0x08,0x00,0x04,0x00,0x14,0x00,0x00,0x00,0x1c,0x00,0x00,0x00,0x90,0x00,0x00,0x00,0xe8,0x00,0x00,0x00,0x04,0x0a,0x00,0x00,0x14,0x0a,0x00,0x00,0x10,0x11,0x00,0x00,0x03,0x00,0x00,0x00,0x01,0x00,0x00,0x00,0x10,0x00,0x00,0x00,0x00,0x00,0x0a,0x00,0x10,0x00,0x0c,0x00,0x08,0x00,0x04,0x00,0x0a,0x00,0x00,0x00,0x0c,0x00,0x00,0x00,0x1c,0x00,0x00,0x00,0x38,0x00,0x00,0x00,0x0f,0x00,0x00,0x00,0x73,0x65,0x72,0x76,0x69,0x6e,0x67,0x5f,0x64,0x65,0x66,0x61,0x75,0x6c,0x74,0x00,0x01,0x00,0x00,0x00,0x04,0x00,0x00,0x00,0x98,0xff,0xff,0xff,0x0a,0x00,0x00,0x00,0x04,0x00,0x00,0x00,0x07,0x00,0x00,0x00,0x64,0x65,0x6e,0x73,0x65,0x5f,0x32,0x00,0x01,0x00,0x00,0x00,0x04,0x00,0x00,0x00,0xde,0xf5,0xff,0xff,0x04,0x00,0x00,0x00,0x0b,0x00,0x00,0x00,0x66,0x65,0x61,0x74,0x75,0x72,0x65,0x73,0x5f,0x33,0x39,0x00,0x02,0x00,0x00,0x00,0x34,0x00,0x00,0x00,0x04,0x00,0x00,0x00,0xdc,0xff,0xff,0xff,0x0d,0x00,0x00,0x00,0x04,0x00,0x00,0x00,0x13,0x00,0x00,0x00,0x43,0x4f,0x4e,0x56,0x45,0x52,0x53,0x49,0x4f,0x4e,0x5f,0x4d,0x45,0x54,0x41,0x44,0x41,0x54,0x41,0x00,0x08,0x00,0x0c,0x00,0x08,0x00,0x04,0x00,0x08,0x00,0x00,0x00,0x0c,0x00,0x00,0x00,0x04,0x00,0x00,0x00,0x13,0x00,0x00,0x00,0x6d,0x69,0x6e,0x5f,0x72,0x75,0x6e,0x74,0x69,0x6d,0x65,0x5f,0x76,0x65,0x72,0x73,0x69,0x6f,0x6e,0x00,0x0e,0x00,0x00,0x00,0x18,0x09,0x00,0x00,0x10,0x09,0x00,0x00,0xec,0x08,0x00,0x00,0x8c,0x08,0x00,0x00,0x3c,0x08,0x00,0x00,0x2c,0x06,0x00,0x00,0x9c,0x05,0x00,0x00,0xac,0x00,0x00,0x00,0xa4,0x00,0x00,0x00,0x9c,0x00,0x00,0x00,0x94,0x00,0x00,0x00,0x8c,0x00,0x00,0x00,0x6c,0x00,0x00,0x00,0x04,0x00,0x00,0x00,0x8e,0xf6,0xff,0xff,0x04,0x00,0x00,0x00,0x58,0x00,0x00,0x00,0x0c,0x00,0x00,0x00,0x08,0x00,0x0e,0x00,0x08,0x00,0x04,0x00,0x08,0x00,0x00,0x00,0x10,0x00,0x00,0x00,0x28,0x00,0x00,0x00,0x00,0x00,0x06,0x00,0x08,0x00,0x04,0x00,0x06,0x00,0x00,0x00,0x04,0x00,0x00,0x00,0x01,0x00,0x00,0x00,0xeb,0x03,0x00,0x00,0x00,0x00,0x0a,0x00,0x10,0x00,0x0c,0x00,0x08,0x00,0x04,0x00,0x0a,0x00,0x00,0x00,0x02,0x00,0x00,0x00,0x02,0x00,0x00,0x00,0x04,0x00,0x00,0x00,0x06,0x00,0x00,0x00,0x32,0x2e,0x31,0x35,0x2e,0x31,0x00,0x00,0xf2,0xf6,0xff,0xff,0x04,0x00,0x00,0x00,0x10,0x00,0x00,0x00,0x31,0x2e,0x31,0x34,0x2e,0x30,0x00,0x00,0x00,0x00,0x00,0x00,0x00,0x00,0x00,0x00,0xdc,0xf6,0xff,0xff,0xe0,0xf6,0xff,0xff,0xe4,0xf6,0xff,0xff,0xe8,0xf6,0xff,0xff,0x1e,0xf7,0xff,0xff,0x04,0x00,0x00,0x00,0xe0,0x04,0x00,0x00,0x3a,0xf2,0x35,0x68,0x51,0xec,0xf8,0xd5,0xda,0x06,0xb6,0x33,0xd7,0xb6,0x81,0xaa,0x24,0xd9,0xe5,0xed,0x0d,0x13,0xdb,0x45,0x0a,0xf8,0xf9,0xf2,0x07,0x07,0x24,0xf4,0x27,0x21,0x27,0x2a,0x02,0xf5,0x01,0xcf,0xfc,0xff,0xcb,0xf4,0xfb,0x3d,0xfa,0x06,0x3f,0xe4,0x0b,0xf2,0xf6,0x16,0xf5,0x17,0x07,0x25,0xfb,0xf6,0xd4,0xf8,0x07,0xf1,0x0d,0xea,0x0a,0x05,0x1d,0xab,0xfd,0xbc,0xd9,0xb5,0x1b,0x24,0xf5,0x20,0xf6,0xe6,0x1b,0x0a,0x03,0xb7,0x0c,0xb8,0xe5,0xf7,0xfd,0x31,0xfd,0x13,0x11,0xef,0x1e,0xda,0xff,0x16,0xef,0x11,0x00,0x36,0x02,0xe0,0x00,0x02,0xd2,0xe5,0xda,0xff,0xf0,0xc9,0xf4,0x1d,0x01,0xfc,0x3b,0x1d,0xed,0x16,0x0a,0x31,0x1d,0x36,0x3d,0x37,0xd4,0x2c,0x11,0x28,0x27,0x44,0x0b,0x09,0xda,0xfc,0x34,0x16,0xfc,0x07,0xf8,0x09,0xe7,0x05,0x08,0xde,0xfa,0x38,0x05,0x38,0x0f,0x30,0xb5,0xf9,0xf7,0x0d,0xff,0x0b,0x15,0x2c,0x21,0xf8,0xef,0x26,0x0b,0xb2,0xf4,0xf8,0xfa,0xf0,0xf9,0x02,0xe2,0x02,0xed,0xfe,0x2e,0x08,0x02,0x07,0xdd,0xbb,0xec,0x0f,0xe5,0x0b,0x13,0xed,0xf9,0xee,0xee,0xee,0x13,0xe9,0xe6,0x2d,0xec,0x13,0x20,0x22,0x0b,0xe0,0x01,0xf9,0xe0,0x32,0x03,0x29,0x25,0xeb,0x18,0xf4,0x11,0xe5,0x0e,0xf8,0x01,0x29,0xf2,0xf4,0x49,0x04,0x1f,0x10,0xdb,0xe4,0xec,0xf2,0x11,0xf5,0xcf,0xd2,0xe6,0xe6,0xee,0xc2,0x13,0xf5,0xfb,0xb8,0xd5,0xa4,0xcd,0x11,0xfe,0x06,0xf7,0x21,0xf7,0xd9,0xeb,0xf0,0xce,0xf3,0xed,0xee,0x27,0xec,0xfe,0x0a,0x24,0x15,0x0c,0xf8,0xec,0xee,0xdc,0xfc,0x07,0xfc,0xdd,0xd8,0xf7,0x0f,0x22,0x11,0x41,0xf2,0xbe,0x09,0xa4,0xb1,0x48,0xc8,0xfa,0xb6,0xe2,0xf1,0x25,0x2a,0xfe,0x15,0x1d,0xe7,0xea,0x02,0x18,0x09,0x1b,0xfc,0x15,0x0b,0x01,0xea,0x03,0x09,0x09,0x08,0x53,0x0f,0x02,0xfb,0xd4,0x1e,0xf1,0xf3,0xda,0xf6,0xf2,0xea,0x0c,0x62,0xa5,0xfe,0xb4,0xaf,0xeb,0xf7,0xeb,0x1d,0xe6,0xf2,0xde,0xf5,0x24,0xe6,0x0c,0xd1,0x00,0xfb,0x23,0x34,0xe2,0x05,0x08,0x10,0xeb,0xbf,0x30,0x11,0xc6,0x17,0x09,0x06,0x25,0x15,0x3f,0xfa,0x24,0x08,0xb0,0xfb,0xe2,0xe4,0x0d,0xdf,0x42,0xd9,0x3b,0x12,0xc1,0xfe,0xf3,0xf0,0xfa,0x02,0x34,0xed,0x27,0xfb,0xef,0xf7,0xfd,0xfe,0x01,0x27,0x1b,0xfc,0xec,0x00,0xf6,0xf4,0x0b,0x02,0x0d,0xf9,0x13,0x00,0x08,0xed,0xf4,0x02,0xf5,0xf6,0xdc,0xdb,0x1d,0xb9,0xe7,0x1d,0x0f,0xfe,0x1b,0xfe,0x09,0x17,0x1c,0x1c,0x00,0x0f,0xec,0xff,0xbe,0xcc,0xc8,0x25,0x1e,0x16,0x34,0x22,0x04,0x11,0x2f,0x1e,0x33,0xdd,0x24,0xfd,0xcb,0xd6,0xf2,0xf3,0xfc,0xcb,0x00,0x1c,0xf0,0x03,0xd2,0xfe,0xe9,0xf9,0xfa,0x18,0x0b,0xe0,0x1b,0x0f,0xfd,0xec,0x00,0xc8,0xc8,0xc5,0x00,0x09,0xfc,0x14,0x1b,0xf0,0xfa,0x02,0xf0,0x23,0xd5,0x19,0x03,0x3b,0x0f,0x00,0xee,0x05,0xf5,0x00,0xf8,0x00,0xdb,0xe6,0x06,0x0d,0xff,0xef,0x1a,0x08,0xfc,0xf1,0xfd,0x04,0x22,0xfa,0x12,0x28,0x27,0x19,0xfc,0xdd,0xda,0xec,0x0c,0x00,0x06,0xf4,0xd4,0x18,0xfe,0xd4,0xf5,0xfc,0x04,0xfc,0xed,0x14,0x0a,0x1d,0xe5,0xef,0x0d,0xed,0x08,0x17,0xe5,0x04,0x1a,0xdd,0x21,0x08,0x0d,0x55,0xf7,0x26,0x49,0x3a,0x14,0x37,0x12,0xf6,0x35,0xe9,0xff,0x33,0x34,0x4c,0xe1,0x6c,0x50,0xd8,0x0d,0x00,0x2e,0x29,0xfe,0xd9,0xdb,0x1a,0xdf,0xd7,0xd3,0x09,0x1e,0xe0,0xe8,0xe7,0xd8,0x2f,0x1a,0xcf,0xf2,0x08,0xdd,0xdc,0xf4,0xd4,0xee,0xd3,0x0c,0x1d,0xec,0x2e,0x0c,0x37,0x36,0x11,0x0d,0x30,0x0d,0xce,0xf8,0xf1,0xe5,0xbe,0x06,0x08,0xfb,0x0b,0xf4,0xeb,0xfe,0x0c,0x0a,0xe5,0x1b,0x12,0x30,0xf0,0xff,0x2a,0xfe,0x3f,0x35,0x4a,0x48,0x0f,0xe8,0x06,0x04,0xe2,0xe6,0x08,0xe6,0x1b,0xf5,0x3f,0xef,0xc6,0xda,0xd8,0xe7,0xe6,0x21,0xc2,0x1d,0xfa,0x10,0xfa,0x1f,0xed,0x0d,0x21,0x26,0xcb,0xee,0x14,0xd5,0x0d,0x1d,0xe8,0x14,0x19,0x2c,0x26,0xde,0xeb,0xe4,0x18,0xec,0x05,0xf2,0x12,0x14,0xe9,0x2a,0x23,0xbd,0xcd,0xec,0xff,0xd3,0xe0,0xdc,0x07,0xe9,0xf5,0x0c,0x3a,0xf0,0x0d,0x1b,0x15,0xea,0xee,0xd4,0xc8,0x22,0xfa,0xf4,0xf7,0x28,0xfc,0x09,0xd9,0xeb,0x05,0x0c,0xe3,0x21,0xf5,0x1c,0xc3,0xe7,0xd5,0xdf,0xbd,0x16,0x08,0x22,0x03,0xdd,0xbe,0xf3,0x0e,0xd9,0xf9,0x1d,0xd4,0x12,0x03,0xfa,0xd0,0x09,0xfa,0xe9,0xd2,0xee,0x0b,0xee,0x10,0x01,0x11,0xec,0x03,0xd1,0xf8,0xe9,0x1c,0xf2,0xe9,0x19,0xdb,0x03,0x01,0x16,0xfb,0xfa,0x16,0xe1,0x42,0x14,0xd4,0x14,0x04,0xd1,0x01,0xe7,0x17,0x01,0xf1,0xc6,0xe9,0xdd,0xe2,0xf0,0x0a,0xfd,0x17,0x2c,0xfc,0xda,0x07,0x0a,0xde,0x1d,0x30,0xfe,0x11,0x03,0xc1,0x06,0xd0,0x04,0xaa,0xe7,0x16,0x06,0x07,0xdd,0xde,0x05,0x18,0x1f,0x22,0xf3,0xf6,0x20,0x22,0xfc,0x19,0x1d,0xf7,0x2d,0x06,0x06,0x0e,0x27,0x0e,0x26,0xf3,0x12,0xf8,0xee,0x0f,0xf6,0x06,0xe7,0x21,0xe5,0xef,0xc5,0xc6,0xde,0xf7,0xfd,0x27,0xf9,0xef,0x8d,0xe9,0xee,0xd6,0xfc,0xbf,0xe9,0x06,0xed,0xd8,0xda,0x1f,0xe3,0xf4,0xe7,0x05,0xed,0x0a,0xe7,0x10,0x04,0xf7,0x07,0x0a,0x18,0xfa,0xee,0x03,0x2b,0x29,0x1e,0xfa,0x2c,0x03,0x31,0x27,0xf1,0x2c,0xd4,0xda,0x30,0xbf,0x07,0x26,0x2d,0x16,0x17,0x44,0x02,0x04,0x03,0xce,0x13,0xd0,0x16,0xd9,0x0f,0x29,0x1a,0xbb,0xfd,0xec,0x24,0xf1,0xfc,0xfa,0xe3,0xfe,0xa8,0xf6,0xa0,0xac,0xfb,0x18,0xf9,0x01,0x06,0xfc,0xfe,0xd8,0x1a,0xed,0xeb,0xf6,0xd8,0x26,0xf3,0xe3,0x2b,0x24,0x0c,0xf4,0xf1,0xe2,0xe4,0xdd,0xe5,0x03,0xfe,0xe4,0xee,0xd9,0xeb,0x14,0x0b,0xe2,0xff,0xf8,0xd0,0xec,0xdd,0x3f,0xec,0xda,0xec,0xd9,0x47,0xf0,0x15,0xd9,0xf9,0x08,0xf5,0x00,0x08,0xf0,0x24,0x19,0x17,0xeb,0x11,0x09,0x33,0xf9,0x30,0x1a,0x04,0x35,0xf9,0x1e,0x0e,0x0f,0xe5,0xf3,0xe1,0x03,0x01,0x0b,0xc0,0xf7,0x15,0x1c,0xee,0x1c,0x04,0x01,0xba,0xf1,0xe6,0xf7,0x12,0xc5,0xee,0x25,0x07,0x15,0x40,0xdf,0x32,0x0f,0xee,0xf6,0x34,0xec,0xe0,0xf2,0x3b,0xe7,0x07,0xf2,0x0e,0x25,0xf9,0x00,0xf6,0xfc,0xda,0x09,0xe6,0x42,0xe2,0x00,0xc5,0xbd,0x35,0xd2,0xe1,0xff,0xe0,0x08,0x0b,0x1c,0x0e,0x38,0x07,0x0a,0xe4,0x04,0xf9,0x08,0x23,0x2b,0x0f,0x2a,0x16,0x50,0xf1,0x15,0x03,0xf4,0xd7,0xe6,0xc6,0xdf,0xf4,0xd1,0x04,0x12,0x1d,0xd1,0xfc,0xf8,0xed,0xfe,0xfe,0xf3,0x12,0xf8,0x1e,0xee,0x0b,0xf3,0x04,0xe9,0x32,0xe6,0x20,0x0e,0x0e,0xb6,0x00,0xc5,0xd5,0xa5,0xfb,0xf7,0xf6,0xed,0x31,0xde,0x2a,0x19,0x1d,0xee,0xf2,0xe7,0xea,0x0b,0xf7,0x07,0x1f,0xed,0x10,0x31,0x04,0x27,0x1a,0xeb,0xfb,0x0b,0xf4,0xbd,0x04,0x08,0xf4,0xeb,0xf9,0xe4,0xfa,0x02,0xfb,0xdf,0xf0,0x07,0xd7,0xe3,0x1b,0x16,0x17,0xe8,0xf9,0x15,0x0d,0xed,0x19,0x2d,0x0c,0xce,0xf1,0xf2,0xdf,0x10,0xf6,0xda,0x13,0xed,0xe3,0x14,0x25,0xf4,0x29,0x30,0xea,0xdf,0x17,0x19,0xfa,0xca,0xed,0xcd,0xb6,0xa0,0x05,0xe8,0xe8,0x13,0xe2,0xe1,0xde,0xd5,0xca,0xad,0x0b,0xbb,0xba,0x31,0x33,0xfa,0x0a,0x2c,0x48,0xf3,0x24,0xf0,0xf4,0x0c,0x00,0x06,0x11,0x11,0x17,0x22,0x1e,0xe9,0x1e,0x10,0xe7,0xfe,0xcb,0xf2,0xc9,0xfd,0xee,0xf8,0xf0,0xeb,0x03,0xfe,0x1b,0xe1,0xc3,0x19,0xdb,0xcc,0x3b,0xf6,0xf5,0x2c,0x19,0x06,0x2f,0xda,0x36,0xfb,0xe6,0xdf,0xe7,0xdf,0xe3,0xde,0x1d,0x10,0x02,0xda,0x07,0x04,0x02,0x21,0x13,0x1f,0xed,0xf8,0xfd,0x12,0x0a,0xfc,0xff,0xff,0x04,0x00,0x00,0x00,0x80,0x00,0x00,0x00,0xed,0x01,0x00,0x00,0xc3,0xff,0xff,0xff,0x1f,0x00,0x00,0x00,0x3f,0x00,0x00,0x00,0x3a,0x00,0x00,0x00,0x6c,0x01,0x00,0x00,0x25,0x00,0x00,0x00,0x03,0x00,0x00,0x00,0xf1,0x00,0x00,0x00,0x9d,0x00,0x00,0x00,0x09,0x00,0x00,0x00,0x77,0x00,0x00,0x00,0x6e,0x00,0x00,0x00,0x10,0xff,0xff,0xff,0x82,0x01,0x00,0x00,0xbe,0x01,0x00,0x00,0x6d,0xff,0xff,0xff,0xc9,0xff,0xff,0xff,0x3c,0x00,0x00,0x00,0xba,0xff,0xff,0xff,0x10,0x01,0x00,0x00,0x0b,0x00,0x00,0x00,0x6e,0x01,0x00,0x00,0x26,0x00,0x00,0x00,0xca,0xfe,0xff,0xff,0xab,0xff,0xff,0xff,0x53,0xff,0xff,0xff,0xf6,0xff,0xff,0xff,0x46,0x01,0x00,0x00,0xef,0x00,0x00,0x00,0xa4,0xff,0xff,0xff,0x2e,0x00,0x00,0x00,0x96,0xfc,0xff,0xff,0x04,0x00,0x00,0x00,0x00,0x02,0x00,0x00,0x25,0x17,0xe4,0xd2,0xf7,0xe7,0xe5,0x1c,0x00,0x00,0x16,0x22,0x06,0x12,0xdf,0x04,0x2e,0x32,0xee,0x1a,0x05,0x04,0xc9,0xd3,0x3e,0x05,0x18,0xf9,0xd4,0x0f,0x14,0x04,0xf6,0xe1,0x07,0x37,0x05,0x08,0xf0,0x0d,0xef,0x29,0xfe,0x24,0xf7,0xfb,0x0e,0xe0,0xf4,0x1a,0x14,0x1d,0xdf,0xe9,0x14,0xe7,0x0f,0xf0,0xe2,0xf5,0x1c,0x0d,0xb0,0xf6,0xfb,0x0a,0xd9,0x2c,0xce,0xe3,0x0a,0xe4,0xf8,0xee,0x07,0x11,0x2a,0x38,0xe7,0x1e,0x19,0x08,0xd2,0x24,0xed,0xd1,0x03,0x06,0x39,0xc9,0x38,0xfb,0xf7,0x18,0xe5,0x27,0xeb,0xf3,0xdd,0x25,0x0e,0x07,0xec,0x30,0xfd,0x34,0xe6,0x09,0xf3,0x00,0x0b,0xf5,0x04,0x11,0xe2,0xf2,0xec,0xde,0x09,0xf7,0xf2,0xe9,0x08,0x05,0x16,0x12,0xc5,0x26,0xdf,0x28,0xf2,0x03,0xe9,0x1d,0x05,0xd2,0x01,0x01,0x13,0xec,0x17,0xec,0x16,0x14,0x0f,0xdf,0x10,0x16,0xeb,0x08,0xf8,0x15,0xef,0x09,0xfd,0x0e,0x1b,0x0e,0x36,0xf1,0x08,0xdb,0xf1,0xf8,0xe4,0xf4,0xf6,0xf8,0xe3,0xe3,0xf2,0x22,0x28,0x0d,0xbd,0x13,0x29,0x0b,0xe9,0x07,0xda,0x00,0xfc,0x09,0x3a,0x00,0x33,0x04,0xe4,0x17,0xe8,0x11,0x34,0xd7,0xe9,0x34,0x29,0x03,0x0f,0x0c,0x03,0x15,0xed,0xe5,0x29,0xff,0x1d,0x2a,0x2a,0xe6,0x1b,0x30,0x36,0x1f,0x18,0x02,0xf8,0x01,0x22,0xdb,0x0f,0xe4,0x0a,0x38,0x04,0xe4,0x02,0x38,0xfb,0x10,0xf5,0xff,0xfb,0x16,0x23,0x04,0x09,0xf3,0xfc,0xdb,0xde,0xfc,0xff,0x0d,0xe4,0x1a,0x28,0x05,0x0c,0xc8,0x9f,0xd4,0xe0,0xe5,0x23,0xfe,0x20,0x22,0x20,0xfc,0xef,0xdd,0xd2,0x0d,0x36,0xf4,0x1f,0xf8,0x0d,0xe5,0x1c,0xdf,0x1a,0xf5,0xd3,0xf8,0x27,0xcb,0x0b,0xe7,0x01,0xed,0x32,0x0c,0x03,0x2f,0xe3,0xee,0xef,0x52,0xfe,0xcf,0xfd,0x0e,0x1d,0xab,0x1e,0xfd,0x3f,0x46,0x19,0x0d,0x39,0x10,0x0b,0xfa,0xfd,0x0f,0xe9,0x08,0x22,0x0c,0xfd,0x36,0xe5,0x3c,0x16,0x43,0x16,0xf5,0x08,0xf4,0xbc,0xdc,0x28,0xf2,0x10,0x2f,0xe5,0x11,0xbb,0xd6,0xfe,0x0a,0x06,0x19,0x2c,0x28,0x1e,0x24,0x0c,0x1f,0xdf,0xf0,0xe3,0x05,0x08,0x09,0x01,0x1e,0xbe,0x0c,0xf8,0x0a,0x25,0x17,0xe4,0x28,0x03,0xea,0x1d,0x1e,0xf8,0xe9,0x2b,0xd8,0x15,0x34,0xee,0xdd,0xfa,0xf3,0xef,0x0a,0x0c,0x22,0xca,0xf5,0x03,0xcb,0x15,0xd9,0x13,0x2b,0xcf,0xec,0xc2,0x35,0x11,0x1e,0xe5,0xf6,0xbe,0x14,0x04,0xf7,0xe9,0x0d,0x2a,0xf6,0x0d,0x2e,0xf9,0x0d,0xf2,0xf5,0xde,0xe4,0xfa,0xef,0xfe,0x11,0xf0,0xf0,0x81,0xff,0x20,0x15,0x3c,0x23,0xfe,0x1f,0x14,0xfe,0x36,0xf2,0x33,0x27,0xef,0xec,0x0b,0xf3,0xf2,0xf3,0xe2,0xed,0xe1,0xeb,0x08,0x39,0xe6,0x05,0x0e,0xe3,0x31,0xbe,0xce,0x31,0x2d,0x27,0x0b,0x0a,0x02,0x00,0x0d,0xe0,0x9c,0x04,0x1d,0xe2,0x03,0x0f,0x04,0x2a,0x1b,0x0a,0x17,0xdb,0x37,0x1d,0x3f,0x07,0xd9,0x14,0xe9,0xf5,0xe9,0xe3,0x36,0xea,0xed,0xf2,0x0a,0x2b,0x18,0xeb,0xd2,0x10,0xc6,0x15,0x19,0xfa,0xe9,0x20,0x0a,0x0b,0x2d,0x0c,0x06,0x0c,0x02,0xd6,0xe1,0xd2,0x10,0xad,0x0e,0xf8,0xf9,0x2a,0x13,0x01,0xa2,0xfe,0xff,0xff,0x04,0x00,0x00,0x00,0x40,0x00,0x00,0x00,0x64,0xff,0xff,0xff,0x73,0x00,0x00,0x00,0x19,0xff,0xff,0xff,0x65,0x00,0x00,0x00,0xd3,0xff,0xff,0xff,0x28,0xff,0xff,0xff,0xfe,0x00,0x00,0x00,0x79,0x00,0x00,0x00,0x8e,0x00,0x00,0x00,0xf8,0xff,0xff,0xff,0x41,0x00,0x00,0x00,0x2d,0x01,0x00,0x00,0x6e,0x00,0x00,0x00,0x7f,0x00,0x00,0x00,0x95,0x00,0x00,0x00,0xe7,0xff,0xff,0xff,0xee,0xfe,0xff,0xff,0x04,0x00,0x00,0x00,0x50,0x00,0x00,0x00,0xec,0xc0,0xef,0xb8,0x26,0xf1,0x16,0xb4,0xf7,0x25,0xe2,0x13,0x8e,0x0c,0x14,0xa6,0xd0,0x05,0xe3,0x1c,0xe4,0xdb,0xb3,0x19,0x3a,0x25,0x00,0xbc,0x4c,0x0e,0xd4,0xa0,0x37,0x2b,0x1c,0xfa,0xf9,0x33,0x11,0x05,0x05,0x11,0xfc,0xe8,0x19,0xf4,0xc7,0x19,0xbf,0x22,0x02,0x2e,0xeb,0x9d,0x14,0x37,0xc9,0xd2,0xed,0x23,0x4f,0x42,0xde,0x2f,0x0e,0xe7,0x81,0x03,0xd0,0xc7,0x18,0x38,0xc8,0xc6,0x16,0xf1,0x1a,0xb7,0x1c,0x24,0x4a,0xff,0xff,0xff,0x04,0x00,0x00,0x00,0x14,0x00,0x00,0x00,0xf5,0xff,0xff,0xff,0xfc,0xff,0xff,0xff,0xee,0xff,0xff,0xff,0x07,0x00,0x00,0x00,0x21,0x00,0x00,0x00,0x38,0xff,0xff,0xff,0x3c,0xff,0xff,0xff,0x0f,0x00,0x00,0x00,0x4d,0x4c,0x49,0x52,0x20,0x43,0x6f,0x6e,0x76,0x65,0x72,0x74,0x65,0x64,0x2e,0x00,0x01,0x00,0x00,0x00,0x14,0x00,0x00,0x00,0x00,0x00,0x0e,0x00,0x18,0x00,0x14,0x00,0x10,0x00,0x0c,0x00,0x08,0x00,0x04,0x00,0x0e,0x00,0x00,0x00,0x14,0x00,0x00,0x00,0x1c,0x00,0x00,0x00,0x28,0x01,0x00,0x00,0x2c,0x01,0x00,0x00,0x30,0x01,0x00,0x00,0x04,0x00,0x00,0x00,0x6d,0x61,0x69,0x6e,0x00,0x00,0x00,0x00,0x04,0x00,0x00,0x00,0xd0,0x00,0x00,0x00,0x88,0x00,0x00,0x00,0x50,0x00,0x00,0x00,0x14,0x00,0x00,0x00,0x00,0x00,0x0e,0x00,0x1a,0x00,0x14,0x00,0x10,0x00,0x0c,0x00,0x0b,0x00,0x04,0x00,0x0e,0x00,0x00,0x00,0x1c,0x00,0x00,0x00,0x00,0x00,0x00,0x09,0x1c,0x00,0x00,0x00,0x20,0x00,0x00,0x00,0x01,0x00,0x00,0x00,0x00,0x00,0x06,0x00,0x08,0x00,0x04,0x00,0x06,0x00,0x00,0x00,0x00,0x00,0x80,0x3f,0x01,0x00,0x00,0x00,0x0a,0x00,0x00,0x00,0x01,0x00,0x00,0x00,0x09,0x00,0x00,0x00,0x96,0xff,0xff,0xff,0x14,0x00,0x00,0x00,0x00,0x00,0x00,0x08,0x10,0x00,0x00,0x00,0x14,0x00,0x00,0x00,0x04,0x00,0x04,0x00,0x04,0x00,0x00,0x00,0x01,0x00,0x00,0x00,0x09,0x00,0x00,0x00,0x03,0x00,0x00,0x00,0x08,0x00,0x00,0x00,0x02,0x00,0x00,0x00,0x01,0x00,0x00,0x00,0xca,0xff,0xff,0xff,0x10,0x00,0x00,0x00,0x00,0x00,0x00,0x08,0x10,0x00,0x00,0x00,0x14,0x00,0x00,0x00,0xba,0xff,0xff,0xff,0x00,0x00,0x00,0x01,0x01,0x00,0x00,0x00,0x08,0x00,0x00,0x00,0x03,0x00,0x00,0x00,0x07,0x00,0x00,0x00,0x04,0x00,0x00,0x00,0x03,0x00,0x00,0x00,0x00,0x00,0x0e,0x00,0x16,0x00,0x00,0x00,0x10,0x00,0x0c,0x00,0x0b,0x00,0x04,0x00,0x0e,0x00,0x00,0x00,0x18,0x00,0x00,0x00,0x00,0x00,0x00,0x08,0x18,0x00,0x00,0x00,0x1c,0x00,0x00,0x00,0x00,0x00,0x06,0x00,0x08,0x00,0x07,0x00,0x06,0x00,0x00,0x00,0x00,0x00,0x00,0x01,0x01,0x00,0x00,0x00,0x07,0x00,0x00,0x00,0x03,0x00,0x00,0x00,0x00,0x00,0x00,0x00,0x06,0x00,0x00,0x00,0x05,0x00,0x00,0x00,0x01,0x00,0x00,0x00,0x0a,0x00,0x00,0x00,0x01,0x00,0x00,0x00,0x00,0x00,0x00,0x00,0x0b,0x00,0x00,0x00,0x18,0x05,0x00,0x00,0x88,0x04,0x00,0x00,0x04,0x04,0x00,0x00,0x90,0x03,0x00,0x00,0x24,0x03,0x00,0x00,0xb0,0x02,0x00,0x00,0x4c,0x02,0x00,0x00,0xb0,0x01,0x00,0x00,0x0c,0x01,0x00,0x00,0x80,0x00,0x00,0x00,0x04,0x00,0x00,0x00,0x2a,0xfb,0xff,0xff,0x00,0x00,0x00,0x01,0x18,0x00,0x00,0x00,0x20,0x00,0x00,0x00,0x3c,0x00,0x00,0x00,0x0b,0x00,0x00,0x00,0x00,0x00,0x00,0x09,0x50,0x00,0x00,0x00,0x02,0x00,0x00,0x00,0xff,0xff,0xff,0xff,0x05,0x00,0x00,0x00,0x14,0xfb,0xff,0xff,0x08,0x00,0x00,0x00,0x10,0x00,0x00,0x00,0x01,0x00,0x00,0x00,0x80,0xff,0xff,0xff,0xff,0xff,0xff,0xff,0x01,0x00,0x00,0x00,0x00,0x00,0x80,0x3b,0x19,0x00,0x00,0x00,0x53,0x74,0x61,0x74,0x65,0x66,0x75,0x6c,0x50,0x61,0x72,0x74,0x69,0x74,0x69,0x6f,0x6e,0x65,0x64,0x43,0x61,0x6c,0x6c,0x3a,0x30,0x00,0x00,0x00,0x02,0x00,0x00,0x00,0x01,0x00,0x00,0x00,0x05,0x00,0x00,0x00,0xa2,0xfb,0xff,0xff,0x00,0x00,0x00,0x01,0x18,0x00,0x00,0x00,0x20,0x00,0x00,0x00,0x3c,0x00,0x00,0x00,0x0a,0x00,0x00,0x00,0x00,0x00,0x00,0x09,0x60,0x00,0x00,0x00,0x02,0x00,0x00,0x00,0xff,0xff,0xff,0xff,0x05,0x00,0x00,0x00,0x8c,0xfb,0xff,0xff,0x08,0x00,0x00,0x00,0x10,0x00,0x00,0x00,0x01,0x00,0x00,0x00,0x2b,0x00,0x00,0x00,0x00,0x00,0x00,0x00,0x01,0x00,0x00,0x00,0xcf,0x2c,0x25,0x3f,0x2a,0x00,0x00,0x00,0x6d,0x6f,0x64,0x65,0x6c,0x2f,0x64,0x65,0x6e,0x73,0x65,0x5f,0x32,0x2f,0x4d,0x61,0x74,0x4d,0x75,0x6c,0x3b,0x6d,0x6f,0x64,0x65,0x6c,0x2f,0x64,0x65,0x6e,0x73,0x65,0x5f,0x32,0x2f,0x42,0x69,0x61,0x73,0x41,0x64,0x64,0x00,0x00,0x02,0x00,0x00,0x00,0x01,0x00,0x00,0x00,0x05,0x00,0x00,0x00,0x2a,0xfc,0xff,0xff,0x00,0x00,0x00,0x01,0x18,0x00,0x00,0x00,0x20,0x00,0x00,0x00,0x40,0x00,0x00,0x00,0x09,0x00,0x00,0x00,0x00,0x00,0x00,0x09,0x78,0x00,0x00,0x00,0x02,0x00,0x00,0x00,0xff,0xff,0xff,0xff,0x10,0x00,0x00,0x00,0x14,0xfc,0xff,0xff,0x08,0x00,0x00,0x00,0x14,0x00,0x00,0x00,0x01,0x00,0x00,0x00,0x80,0xff,0xff,0xff,0xff,0xff,0xff,0xff,0x00,0x00,0x00,0x00,0x01,0x00,0x00,0x00,0xb5,0x7f,0x9b,0x3e,0x3d,0x00,0x00,0x00,0x6d,0x6f,0x64,0x65,0x6c,0x2f,0x64,0x65,0x6e,0x73,0x65,0x5f,0x31,0x2f,0x4d,0x61,0x74,0x4d,0x75,0x6c,0x3b,0x6d,0x6f,0x64,0x65,0x6c,0x2f,0x64,0x65,0x6e,0x73,0x65,0x5f,0x31,0x2f,0x52,0x65,0x6c,0x75,0x3b,0x6d,0x6f,0x64,0x65,0x6c,0x2f,0x64,0x65,0x6e,0x73,0x65,0x5f,0x31,0x2f,0x42,0x69,0x61,0x73,0x41,0x64,0x64,0x00,0x00,0x00,0x02,0x00,0x00,0x00,0x01,0x00,0x00,0x00,0x10,0x00,0x00,0x00,0xca,0xfc,0xff,0xff,0x00,0x00,0x00,0x01,0x18,0x00,0x00,0x00,0x20,0x00,0x00,0x00,0x40,0x00,0x00,0x00,0x08,0x00,0x00,0x00,0x00,0x00,0x00,0x09,0x70,0x00,0x00,0x00,0x02,0x00,0x00,0x00,0xff,0xff,0xff,0xff,0x20,0x00,0x00,0x00,0xb4,0xfc,0xff,0xff,0x08,0x00,0x00,0x00,0x14,0x00,0x00,0x00,0x01,0x00,0x00,0x00,0x80,0xff,0xff,0xff,0xff,0xff,0xff,0xff,0x00,0x00,0x00,0x00,0x01,0x00,0x00,0x00,0x79,0xf9,0xe8,0x3d,0x37,0x00,0x00,0x00,0x6d,0x6f,0x64,0x65,0x6c,0x2f,0x64,0x65,0x6e,0x73,0x65,0x2f,0x4d,0x61,0x74,0x4d,0x75,0x6c,0x3b,0x6d,0x6f,0x64,0x65,0x6c,0x2f,0x64,0x65,0x6e,0x73,0x65,0x2f,0x52,0x65,0x6c,0x75,0x3b,0x6d,0x6f,0x64,0x65,0x6c,0x2f,0x64,0x65,0x6e,0x73,0x65,0x2f,0x42,0x69,0x61,0x73,0x41,0x64,0x64,0x00,0x02,0x00,0x00,0x00,0x01,0x00,0x00,0x00,0x20,0x00,0x00,0x00,0xee,0xfd,0xff,0xff,0x00,0x00,0x00,0x01,0x14,0x00,0x00,0x00,0x30,0x00,0x00,0x00,0x07,0x00,0x00,0x00,0x00,0x00,0x00,0x09,0x3c,0x00,0x00,0x00,0x3c,0xfd,0xff,0xff,0x08,0x00,0x00,0x00,0x10,0x00,0x00,0x00,0x01,0x00,0x00,0x00,0x00,0x00,0x00,0x00,0x00,0x00,0x00,0x00,0x01,0x00,0x00,0x00,0x74,0x33,0x21,0x3c,0x12,0x00,0x00,0x00,0x6d,0x6f,0x64,0x65,0x6c,0x2f,0x64,0x65,0x6e,0x73,0x65,0x2f,0x4d,0x61,0x74,0x4d,0x75,0x6c,0x00,0x00,0x02,0x00,0x00,0x00,0x20,0x00,0x00,0x00,0x27,0x00,0x00,0x00,0x4e,0xfe,0xff,0xff,0x00,0x00,0x00,0x01,0x14,0x00,0x00,0x00,0x34,0x00,0x00,0x00,0x06,0x00,0x00,0x00,0x00,0x00,0x00,0x02,0x50,0x00,0x00,0x00,0x9c,0xfd,0xff,0xff,0x08,0x00,0x00,0x00,0x14,0x00,0x00,0x00,0x01,0x00,0x00,0x00,0x00,0x00,0x00,0x00,0x00,0x00,0x00,0x00,0x00,0x00,0x00,0x00,0x01,0x00,0x00,0x00,0x18,0x21,0xaf,0x3a,0x22,0x00,0x00,0x00,0x6d,0x6f,0x64,0x65,0x6c,0x2f,0x64,0x65,0x6e,0x73,0x65,0x2f,0x42,0x69,0x61,0x73,0x41,0x64,0x64,0x2f,0x52,0x65,0x61,0x64,0x56,0x61,0x72,0x69,0x61,0x62,0x6c,0x65,0x4f,0x70,0x00,0x00,0x01,0x00,0x00,0x00,0x20,0x00,0x00,0x00,0xbe,0xfe,0xff,0xff,0x00,0x00,0x00,0x01,0x14,0x00,0x00,0x00,0x34,0x00,0x00,0x00,0x05,0x00,0x00,0x00,0x00,0x00,0x00,0x09,0x44,0x00,0x00,0x00,0x0c,0xfe,0xff,0xff,0x08,0x00,0x00,0x00,0x14,0x00,0x00,0x00,0x01,0x00,0x00,0x00,0x00,0x00,0x00,0x00,0x00,0x00,0x00,0x00,0x00,0x00,0x00,0x00,0x01,0x00,0x00,0x00,0xf4,0xb9,0x6a,0x3c,0x14,0x00,0x00,0x00,0x6d,0x6f,0x64,0x65,0x6c,0x2f,0x64,0x65,0x6e,0x73,0x65,0x5f,0x31,0x2f,0x4d,0x61,0x74,0x4d,0x75,0x6c,0x00,0x00,0x00,0x00,0x02,0x00,0x00,0x00,0x10,0x00,0x00,0x00,0x20,0x00,0x00,0x00,0x26,0xff,0xff,0xff,0x00,0x00,0x00,0x01,0x14,0x00,0x00,0x00,0x30,0x00,0x00,0x00,0x04,0x00,0x00,0x00,0x00,0x00,0x00,0x02,0x50,0x00,0x00,0x00,0x74,0xfe,0xff,0xff,0x08,0x00,0x00,0x00,0x10,0x00,0x00,0x00,0x01,0x00,0x00,0x00,0x00,0x00,0x00,0x00,0x00,0x00,0x00,0x00,0x01,0x00,0x00,0x00,0x43,0x9d,0xd5,0x3a,0x24,0x00,0x00,0x00,0x6d,0x6f,0x64,0x65,0x6c,0x2f,0x64,0x65,0x6e,0x73,0x65,0x5f,0x31,0x2f,0x42,0x69,0x61,0x73,0x41,0x64,0x64,0x2f,0x52,0x65,0x61,0x64,0x56,0x61,0x72,0x69,0x61,0x62,0x6c,0x65,0x4f,0x70,0x00,0x00,0x00,0x00,0x01,0x00,0x00,0x00,0x10,0x00,0x00,0x00,0x96,0xff,0xff,0xff,0x00,0x00,0x00,0x01,0x14,0x00,0x00,0x00,0x34,0x00,0x00,0x00,0x03,0x00,0x00,0x00,0x00,0x00,0x00,0x09,0x44,0x00,0x00,0x00,0xe4,0xfe,0xff,0xff,0x08,0x00,0x00,0x00,0x14,0x00,0x00,0x00,0x01,0x00,0x00,0x00,0x00,0x00,0x00,0x00,0x00,0x00,0x00,0x00,0x00,0x00,0x00,0x00,0x01,0x00,0x00,0x00,0x0d,0x3c,0x9b,0x3c,0x14,0x00,0x00,0x00,0x6d,0x6f,0x64,0x65,0x6c,0x2f,0x64,0x65,0x6e,0x73,0x65,0x5f,0x32,0x2f,0x4d,0x61,0x74,0x4d,0x75,0x6c,0x00,0x00,0x00,0x00,0x02,0x00,0x00,0x00,0x05,0x00,0x00,0x00,0x10,0x00,0x00,0x00,0x00,0x00,0x16,0x00,0x1c,0x00,0x18,0x00,0x17,0x00,0x10,0x00,0x0c,0x00,0x08,0x00,0x00,0x00,0x00,0x00,0x00,0x00,0x07,0x00,0x16,0x00,0x00,0x00,0x00,0x00,0x00,0x01,0x14,0x00,0x00,0x00,0x34,0x00,0x00,0x00,0x02,0x00,0x00,0x00,0x00,0x00,0x00,0x02,0x54,0x00,0x00,0x00,0x64,0xff,0xff,0xff,0x08,0x00,0x00,0x00,0x14,0x00,0x00,0x00,0x01,0x00,0x00,0x00,0x00,0x00,0x00,0x00,0x00,0x00,0x00,0x00,0x00,0x00,0x00,0x00,0x01,0x00,0x00,0x00,0x99,0x95,0xbc,0x3b,0x24,0x00,0x00,0x00,0x6d,0x6f,0x64,0x65,0x6c,0x2f,0x64,0x65,0x6e,0x73,0x65,0x5f,0x32,0x2f,0x42,0x69,0x61,0x73,0x41,0x64,0x64,0x2f,0x52,0x65,0x61,0x64,0x56,0x61,0x72,0x69,0x61,0x62,0x6c,0x65,0x4f,0x70,0x00,0x00,0x00,0x00,0x01,0x00,0x00,0x00,0x05,0x00,0x00,0x00,0x00,0x00,0x16,0x00,0x20,0x00,0x1c,0x00,0x1b,0x00,0x14,0x00,0x10,0x00,0x0c,0x00,0x00,0x00,0x00,0x00,0x08,0x00,0x07,0x00,0x16,0x00,0x00,0x00,0x00,0x00,0x00,0x01,0x18,0x00,0x00,0x00,0x2c,0x00,0x00,0x00,0x48,0x00,0x00,0x00,0x01,0x00,0x00,0x00,0x00,0x00,0x00,0x09,0x60,0x00,0x00,0x00,0x02,0x00,0x00,0x00,0xff,0xff,0xff,0xff,0x27,0x00,0x00,0x00,0x0c,0x00,0x0c,0x00,0x00,0x00,0x00,0x00,0x08,0x00,0x04,0x00,0x0c,0x00,0x00,0x00,0x08,0x00,0x00,0x00,0x10,0x00,0x00,0x00,0x01,0x00,0x00,0x00,0x06,0x00,0x00,0x00,0x00,0x00,0x00,0x00,0x01,0x00,0x00,0x00,0x43,0x0f,0x0b,0x3e,0x1d,0x00,0x00,0x00,0x73,0x65,0x72,0x76,0x69,0x6e,0x67,0x5f,0x64,0x65,0x66,0x61,0x75,0x6c,0x74,0x5f,0x66,0x65,0x61,0x74,0x75,0x72,0x65,0x73,0x5f,0x33,0x39,0x3a,0x30,0x00,0x00,0x00,0x02,0x00,0x00,0x00,0x01,0x00,0x00,0x00,0x27,0x00,0x00,0x00,0x02,0x00,0x00,0x00,0x24,0x00,0x00,0x00,0x04,0x00,0x00,0x00,0xf0,0xff,0xff,0xff,0x19,0x00,0x00,0x00,0x02,0x00,0x00,0x00,0x00,0x00,0x00,0x19,0x0c,0x00,0x10,0x00,0x0f,0x00,0x00,0x00,0x08,0x00,0x04,0x00,0x0c,0x00,0x00,0x00,0x09,0x00,0x00,0x00,0x04,0x00,0x00,0x00,0x00,0x00,0x00,0x09};
extern const int g_model_len = 4480;
}